unsigned char hidden1x8_tflite[] = {
  0x1c, 0x00, 0x00, 0x00, 0x54, 0x46, 0x4c, 0x33, 0x14, 0x00, 0x20, 0x00,
  0x04, 0x00, 0x08, 0x00, 0x0c, 0x00, 0x10, 0x00, 0x14, 0x00, 0x00, 0x00,
  0x18, 0x00, 0x1c, 0x00, 0x14, 0x00, 0x00, 0x00, 0x03, 0x00, 0x00, 0x00,
  0x18, 0x00, 0x00, 0x00, 0x20, 0x00, 0x00, 0x00, 0xa4, 0x00, 0x00, 0x00,
  0x20, 0x00, 0x00, 0x00, 0x4c, 0x00, 0x00, 0x00, 0x44, 0x00, 0x00, 0x00,
  0x02, 0x00, 0x00, 0x00, 0xac, 0x02, 0x00, 0x00, 0x54, 0x01, 0x00, 0x00,
  0x01, 0x00, 0x00, 0x00, 0xa8, 0x00, 0x00, 0x00, 0x0a, 0x00, 0x00, 0x00,
  0x18, 0x08, 0x00, 0x00, 0x14, 0x08, 0x00, 0x00, 0x28, 0x07, 0x00, 0x00,
  0xb0, 0x06, 0x00, 0x00, 0xa0, 0x03, 0x00, 0x00, 0x10, 0x03, 0x00, 0x00,
  0x00, 0x08, 0x00, 0x00, 0xfc, 0x07, 0x00, 0x00, 0xf8, 0x07, 0x00, 0x00,
  0x3c, 0x00, 0x00, 0x00, 0x00, 0x00, 0x00, 0x00, 0x01, 0x00, 0x00, 0x00,
  0x0c, 0x00, 0x00, 0x00, 0x08, 0x00, 0x0c, 0x00, 0x04, 0x00, 0x08, 0x00,
  0x08, 0x00, 0x00, 0x00, 0x08, 0x00, 0x00, 0x00, 0x09, 0x00, 0x00, 0x00,
  0x13, 0x00, 0x00, 0x00, 0x6d, 0x69, 0x6e, 0x5f, 0x72, 0x75, 0x6e, 0x74,
  0x69, 0x6d, 0x65, 0x5f, 0x76, 0x65, 0x72, 0x73, 0x69, 0x6f, 0x6e, 0x00,
  0x36, 0xf9, 0xff, 0xff, 0x04, 0x00, 0x00, 0x00, 0x10, 0x00, 0x00, 0x00,
  0x31, 0x2e, 0x35, 0x2e, 0x30, 0x00, 0x00, 0x00, 0x00, 0x00, 0x00, 0x00,
  0x00, 0x00, 0x00, 0x00, 0x0f, 0x00, 0x00, 0x00, 0x4d, 0x4c, 0x49, 0x52,
  0x20, 0x43, 0x6f, 0x6e, 0x76, 0x65, 0x72, 0x74, 0x65, 0x64, 0x2e, 0x00,
  0x00, 0x00, 0x0e, 0x00, 0x18, 0x00, 0x04, 0x00, 0x08, 0x00, 0x0c, 0x00,
  0x10, 0x00, 0x14, 0x00, 0x0e, 0x00, 0x00, 0x00, 0x14, 0x00, 0x00, 0x00,
  0x34, 0x00, 0x00, 0x00, 0x38, 0x00, 0x00, 0x00, 0x3c, 0x00, 0x00, 0x00,
  0x48, 0x00, 0x00, 0x00, 0x08, 0x00, 0x00, 0x00, 0x18, 0x07, 0x00, 0x00,
  0xac, 0x06, 0x00, 0x00, 0x0c, 0x06, 0x00, 0x00, 0xb4, 0x05, 0x00, 0x00,
  0xa4, 0x02, 0x00, 0x00, 0xd8, 0x01, 0x00, 0x00, 0x04, 0x01, 0x00, 0x00,
  0x7c, 0x00, 0x00, 0x00, 0x01, 0x00, 0x00, 0x00, 0x00, 0x00, 0x00, 0x00,
  0x01, 0x00, 0x00, 0x00, 0x07, 0x00, 0x00, 0x00, 0x03, 0x00, 0x00, 0x00,
  0x60, 0x01, 0x00, 0x00, 0xb4, 0x00, 0x00, 0x00, 0x1c, 0x00, 0x00, 0x00,
  0x04, 0x00, 0x00, 0x00, 0x6d, 0x61, 0x69, 0x6e, 0x00, 0x00, 0x0e, 0x00,
  0x18, 0x00, 0x08, 0x00, 0x0c, 0x00, 0x10, 0x00, 0x07, 0x00, 0x14, 0x00,
  0x0e, 0x00, 0x00, 0x00, 0x00, 0x00, 0x00, 0x09, 0x01, 0x00, 0x00, 0x00,
  0x1c, 0x00, 0x00, 0x00, 0x10, 0x00, 0x00, 0x00, 0x04, 0x00, 0x00, 0x00,
  0x02, 0xfa, 0xff, 0xff, 0x00, 0x00, 0x80, 0x3f, 0x01, 0x00, 0x00, 0x00,
  0x07, 0x00, 0x00, 0x00, 0x01, 0x00, 0x00, 0x00, 0x06, 0x00, 0x00, 0x00,
  0xb8, 0xfe, 0xff, 0xff, 0x19, 0x00, 0x00, 0x00, 0x00, 0x00, 0x00, 0x19,
  0x01, 0x00, 0x00, 0x00, 0x94, 0xf9, 0xff, 0xff, 0x14, 0x00, 0x00, 0x00,
  0x08, 0x00, 0x00, 0x00, 0x18, 0x00, 0x00, 0x00, 0x30, 0x00, 0x00, 0x00,
  0x20, 0x00, 0x00, 0x00, 0x02, 0x00, 0x00, 0x00, 0x01, 0x00, 0x00, 0x00,
  0x02, 0x00, 0x00, 0x00, 0x08, 0x00, 0x00, 0x00, 0x49, 0x64, 0x65, 0x6e,
  0x74, 0x69, 0x74, 0x79, 0x00, 0x00, 0x00, 0x00, 0x02, 0x00, 0x00, 0x00,
  0xff, 0xff, 0xff, 0xff, 0x02, 0x00, 0x00, 0x00, 0x74, 0xfa, 0xff, 0xff,
  0x00, 0x00, 0x0e, 0x00, 0x14, 0x00, 0x00, 0x00, 0x08, 0x00, 0x0c, 0x00,
  0x07, 0x00, 0x10, 0x00, 0x0e, 0x00, 0x00, 0x00, 0x00, 0x00, 0x00, 0x08,
  0x18, 0x00, 0x00, 0x00, 0x0c, 0x00, 0x00, 0x00, 0x04, 0x00, 0x00, 0x00,
  0xa8, 0xf9, 0xff, 0xff, 0x01, 0x00, 0x00, 0x00, 0x06, 0x00, 0x00, 0x00,
  0x03, 0x00, 0x00, 0x00, 0x05, 0x00, 0x00, 0x00, 0x04, 0x00, 0x00, 0x00,
  0x02, 0x00, 0x00, 0x00, 0x18, 0xfa, 0xff, 0xff, 0x14, 0x00, 0x00, 0x00,
  0x07, 0x00, 0x00, 0x00, 0x18, 0x00, 0x00, 0x00, 0x54, 0x00, 0x00, 0x00,
  0x44, 0x00, 0x00, 0x00, 0x02, 0x00, 0x00, 0x00, 0x01, 0x00, 0x00, 0x00,
  0x02, 0x00, 0x00, 0x00, 0x2e, 0x00, 0x00, 0x00, 0x6d, 0x6f, 0x64, 0x65,
  0x6c, 0x5f, 0x33, 0x2f, 0x64, 0x65, 0x6e, 0x73, 0x65, 0x5f, 0x37, 0x2f,
  0x4d, 0x61, 0x74, 0x4d, 0x75, 0x6c, 0x3b, 0x6d, 0x6f, 0x64, 0x65, 0x6c,
  0x5f, 0x33, 0x2f, 0x64, 0x65, 0x6e, 0x73, 0x65, 0x5f, 0x37, 0x2f, 0x42,
  0x69, 0x61, 0x73, 0x41, 0x64, 0x64, 0x00, 0x00, 0x02, 0x00, 0x00, 0x00,
  0xff, 0xff, 0xff, 0xff, 0x02, 0x00, 0x00, 0x00, 0x1c, 0xfb, 0xff, 0xff,
  0x00, 0x00, 0x0e, 0x00, 0x16, 0x00, 0x00, 0x00, 0x08, 0x00, 0x0c, 0x00,
  0x07, 0x00, 0x10, 0x00, 0x0e, 0x00, 0x00, 0x00, 0x00, 0x00, 0x00, 0x08,
  0x24, 0x00, 0x00, 0x00, 0x18, 0x00, 0x00, 0x00, 0x0c, 0x00, 0x00, 0x00,
  0x00, 0x00, 0x06, 0x00, 0x08, 0x00, 0x07, 0x00, 0x06, 0x00, 0x00, 0x00,
  0x00, 0x00, 0x00, 0x01, 0x01, 0x00, 0x00, 0x00, 0x05, 0x00, 0x00, 0x00,
  0x03, 0x00, 0x00, 0x00, 0x00, 0x00, 0x00, 0x00, 0x03, 0x00, 0x00, 0x00,
  0x01, 0x00, 0x00, 0x00, 0x0c, 0x00, 0x10, 0x00, 0x0b, 0x00, 0x00, 0x00,
  0x0c, 0x00, 0x04, 0x00, 0x0c, 0x00, 0x00, 0x00, 0x09, 0x00, 0x00, 0x00,
  0x00, 0x00, 0x00, 0x09, 0x01, 0x00, 0x00, 0x00, 0xe8, 0xfa, 0xff, 0xff,
  0x14, 0x00, 0x00, 0x00, 0x06, 0x00, 0x00, 0x00, 0x18, 0x00, 0x00, 0x00,
  0x68, 0x00, 0x00, 0x00, 0x58, 0x00, 0x00, 0x00, 0x02, 0x00, 0x00, 0x00,
  0x01, 0x00, 0x00, 0x00, 0x08, 0x00, 0x00, 0x00, 0x43, 0x00, 0x00, 0x00,
  0x6d, 0x6f, 0x64, 0x65, 0x6c, 0x5f, 0x33, 0x2f, 0x64, 0x65, 0x6e, 0x73,
  0x65, 0x5f, 0x36, 0x2f, 0x4d, 0x61, 0x74, 0x4d, 0x75, 0x6c, 0x3b, 0x6d,
  0x6f, 0x64, 0x65, 0x6c, 0x5f, 0x33, 0x2f, 0x64, 0x65, 0x6e, 0x73, 0x65,
  0x5f, 0x36, 0x2f, 0x52, 0x65, 0x6c, 0x75, 0x3b, 0x6d, 0x6f, 0x64, 0x65,
  0x6c, 0x5f, 0x33, 0x2f, 0x64, 0x65, 0x6e, 0x73, 0x65, 0x5f, 0x36, 0x2f,
  0x42, 0x69, 0x61, 0x73, 0x41, 0x64, 0x64, 0x00, 0x02, 0x00, 0x00, 0x00,
  0xff, 0xff, 0xff, 0xff, 0x08, 0x00, 0x00, 0x00, 0x0c, 0xfb, 0xff, 0xff,
  0xfa, 0xfb, 0xff, 0xff, 0x04, 0x00, 0x00, 0x00, 0x40, 0x00, 0x00, 0x00,
  0x77, 0xe7, 0x34, 0x3f, 0x7a, 0x4b, 0xe9, 0xbf, 0x26, 0x4c, 0x82, 0x3e,
  0xa8, 0x9d, 0x11, 0x3f, 0x75, 0x61, 0xf2, 0xbf, 0x73, 0xf3, 0x34, 0xc0,
  0xee, 0xdc, 0x02, 0xc0, 0x3a, 0x7f, 0x8d, 0x3e, 0x3c, 0x7e, 0x08, 0xbf,
  0xaa, 0x1a, 0xf1, 0x3f, 0xcc, 0x72, 0xc5, 0xbf, 0x83, 0x65, 0xba, 0xbf,
  0x70, 0x56, 0x9d, 0x3f, 0x50, 0x08, 0x16, 0x40, 0x26, 0xe3, 0xd8, 0x3f,
  0x06, 0xe7, 0x5b, 0xbf, 0x12, 0xfc, 0xff, 0xff, 0x10, 0x00, 0x00, 0x00,
  0x05, 0x00, 0x00, 0x00, 0x14, 0x00, 0x00, 0x00, 0x2c, 0x00, 0x00, 0x00,
  0x02, 0x00, 0x00, 0x00, 0x02, 0x00, 0x00, 0x00, 0x08, 0x00, 0x00, 0x00,
  0x16, 0x00, 0x00, 0x00, 0x6d, 0x6f, 0x64, 0x65, 0x6c, 0x5f, 0x33, 0x2f,
  0x64, 0x65, 0x6e, 0x73, 0x65, 0x5f, 0x37, 0x2f, 0x4d, 0x61, 0x74, 0x4d,
  0x75, 0x6c, 0x00, 0x00, 0x98, 0xfb, 0xff, 0xff, 0x86, 0xfc, 0xff, 0xff,
  0x04, 0x00, 0x00, 0x00, 0xc0, 0x02, 0x00, 0x00, 0xc0, 0x34, 0x45, 0xbe,
  0x22, 0x55, 0x68, 0xbf, 0x44, 0x8d, 0x86, 0x3e, 0x39, 0x35, 0x9d, 0x3e,
  0x8e, 0xf6, 0x83, 0x3f, 0x77, 0x83, 0xfb, 0x3e, 0x8d, 0x4e, 0x37, 0xbe,
  0x98, 0xd0, 0xca, 0xbe, 0xca, 0xf8, 0x13, 0x3e, 0x52, 0xe1, 0x4a, 0xbe,
  0xfa, 0xee, 0x0a, 0x3f, 0xf0, 0x29, 0x42, 0xbf, 0xfc, 0xe6, 0x88, 0x3f,
  0xa4, 0xaf, 0x9f, 0x3e, 0x6b, 0xb3, 0x9e, 0xbd, 0x57, 0x25, 0x4b, 0x3f,
  0x4f, 0xd5, 0xfc, 0x3e, 0x6f, 0x36, 0x09, 0xbf, 0x9f, 0xed, 0xc1, 0x3e,
  0x34, 0x71, 0x5a, 0x3e, 0xde, 0x51, 0x05, 0xbd, 0xf0, 0x75, 0x02, 0x3f,
  0xf2, 0xce, 0x34, 0x3e, 0x43, 0x10, 0x79, 0x3f, 0x8d, 0xaf, 0x98, 0x3e,
  0x02, 0x7c, 0x67, 0x3e, 0x22, 0x21, 0x47, 0xbf, 0x2e, 0xec, 0xa8, 0x3f,
  0x12, 0x5b, 0xc6, 0xbf, 0x35, 0x8d, 0x70, 0xbf, 0x79, 0x79, 0xf9, 0xbe,
  0x99, 0x26, 0x2c, 0xbf, 0x46, 0xc6, 0x14, 0xbe, 0xfb, 0x6c, 0x9a, 0x3f,
  0xb5, 0x65, 0xef, 0xbe, 0xa6, 0xf6, 0xee, 0x3e, 0x1d, 0x5a, 0x8f, 0x3f,
  0xde, 0x05, 0x3e, 0x3f, 0xaf, 0x32, 0x14, 0xbe, 0x2e, 0x7f, 0x88, 0xbf,
  0x39, 0x15, 0xdb, 0xbe, 0x28, 0x22, 0x01, 0x3f, 0xa5, 0xfe, 0xb8, 0xbd,
  0x83, 0x25, 0x2a, 0xbf, 0xfb, 0xdd, 0x39, 0xbe, 0xc2, 0x77, 0x73, 0xbf,
  0x42, 0xc1, 0xbd, 0x3d, 0x00, 0xbf, 0x02, 0x3e, 0xa2, 0x93, 0x01, 0x3f,
  0x8c, 0x5a, 0x87, 0x3e, 0x11, 0x6d, 0xa8, 0x3e, 0x6d, 0x5e, 0xe4, 0xbe,
  0x1f, 0x70, 0x89, 0x3e, 0xf7, 0x19, 0x36, 0xbf, 0x07, 0x34, 0x85, 0x3f,
  0xbe, 0xea, 0xa4, 0xbf, 0x4b, 0xd8, 0xed, 0x3e, 0xe3, 0x7c, 0x0a, 0x3f,
  0x60, 0x05, 0xe0, 0xbd, 0x6b, 0x93, 0x84, 0x3f, 0xc6, 0x17, 0x82, 0x3f,
  0x08, 0x39, 0xa7, 0x3d, 0x6d, 0x70, 0x8d, 0x3e, 0x63, 0xf6, 0x26, 0x3f,
  0xa5, 0x34, 0x03, 0xbf, 0x94, 0x5f, 0xbe, 0x3e, 0xca, 0x36, 0xb1, 0x3d,
  0x88, 0x9f, 0x2d, 0xbf, 0xef, 0x3a, 0x84, 0xba, 0x2d, 0xae, 0x23, 0x3d,
  0x9c, 0xd9, 0xd5, 0x3e, 0x71, 0x86, 0x21, 0xbe, 0x3f, 0xa2, 0xfc, 0x3c,
  0x73, 0xed, 0x8c, 0xbd, 0x77, 0x67, 0x08, 0x3f, 0x8b, 0xd9, 0x5b, 0xbd,
  0xcc, 0xd0, 0x56, 0x3f, 0x5e, 0xda, 0xb3, 0xbf, 0xf1, 0xf8, 0x70, 0x3f,
  0x61, 0x41, 0x3f, 0x3e, 0xd1, 0xf8, 0x3e, 0xbe, 0x2c, 0x8e, 0x8d, 0x3f,
  0x87, 0x1d, 0xb7, 0x3e, 0x63, 0xd3, 0xe7, 0xbe, 0x7a, 0xec, 0x0d, 0x3f,
  0x4f, 0x88, 0xb2, 0x3e, 0xdd, 0xc7, 0x88, 0xbe, 0x52, 0x59, 0xe3, 0x3e,
  0x29, 0xbf, 0x0a, 0x3f, 0x1e, 0x40, 0x7b, 0x3f, 0xbb, 0x20, 0x12, 0x3f,
  0x16, 0x4d, 0xa0, 0x3e, 0xbd, 0x89, 0x29, 0x3f, 0xe2, 0xfb, 0xcc, 0xbf,
  0x18, 0x6e, 0xab, 0xbf, 0x33, 0xff, 0xa8, 0xbf, 0xb6, 0x79, 0x14, 0x3f,
  0xcd, 0x19, 0x69, 0x3f, 0xb7, 0x82, 0x42, 0xbf, 0x24, 0x48, 0x79, 0x3f,
  0x53, 0x72, 0xf2, 0xbe, 0x9c, 0xe3, 0xd2, 0x3e, 0x74, 0x5e, 0x90, 0x3f,
  0x82, 0x85, 0x28, 0x3d, 0x26, 0x83, 0xf2, 0xbe, 0xf1, 0xca, 0xcf, 0xbf,
  0x89, 0x14, 0xc0, 0xbe, 0x1f, 0xa2, 0x39, 0x3f, 0xce, 0x8c, 0x1b, 0x3f,
  0x64, 0xc2, 0xb2, 0x3e, 0x15, 0xb7, 0x10, 0x3e, 0x43, 0x68, 0x5b, 0xbf,
  0x1f, 0x4d, 0x78, 0xbf, 0x15, 0x80, 0x85, 0xbe, 0x97, 0xaa, 0xa7, 0x3f,
  0x2a, 0x6a, 0x55, 0x3e, 0x98, 0x01, 0x2f, 0x3f, 0x3b, 0x63, 0xcd, 0x3e,
  0xcd, 0x40, 0xd1, 0xbe, 0xed, 0x3e, 0xba, 0xbf, 0x9e, 0xc0, 0x84, 0xbf,
  0x85, 0x2e, 0x4c, 0x3f, 0xa8, 0x81, 0x5b, 0xbf, 0xf7, 0xcf, 0xd3, 0xbf,
  0x1c, 0xc1, 0x28, 0xc0, 0x54, 0x9d, 0xb9, 0x3f, 0x9e, 0xeb, 0xb7, 0x3f,
  0xea, 0x7e, 0xa1, 0x3f, 0x87, 0x1c, 0xb7, 0x3e, 0x50, 0x5c, 0xdb, 0xbe,
  0xf6, 0xb3, 0x8c, 0x3e, 0x8a, 0x83, 0x9b, 0x3d, 0x60, 0x9e, 0xe0, 0x3e,
  0xfa, 0x96, 0xd8, 0xbf, 0xc9, 0xcc, 0xb2, 0x3e, 0xe5, 0x0d, 0x46, 0x3f,
  0x17, 0xe5, 0x10, 0x3f, 0xd0, 0x3e, 0xcc, 0xbd, 0x88, 0x0a, 0x83, 0xbf,
  0x72, 0xcc, 0x3a, 0xbf, 0xc9, 0x2d, 0x50, 0x3f, 0x2c, 0x51, 0x94, 0xbe,
  0x5c, 0x53, 0x88, 0x3b, 0x34, 0x25, 0x38, 0x3f, 0xff, 0xdd, 0x72, 0xbf,
  0xef, 0xda, 0x0f, 0x3f, 0x9e, 0x77, 0x81, 0x3f, 0x17, 0x4c, 0x2f, 0x3f,
  0xad, 0xde, 0x4f, 0xbf, 0xe9, 0x07, 0xaf, 0xbf, 0x2d, 0x03, 0x3b, 0xbf,
  0x6e, 0xda, 0xd0, 0x3e, 0x05, 0x68, 0xa9, 0xbe, 0xeb, 0x8f, 0xac, 0xbe,
  0x81, 0x7b, 0xb3, 0x3d, 0xed, 0x0b, 0xe1, 0xbe, 0xf0, 0xa0, 0xd2, 0x3d,
  0x5b, 0xa8, 0xa4, 0x3e, 0xba, 0xcf, 0x73, 0x3f, 0xf1, 0x16, 0x07, 0x3f,
  0x0b, 0x9d, 0xf7, 0xbd, 0x45, 0x1c, 0xb0, 0x3e, 0x57, 0xd0, 0x97, 0x3e,
  0xdd, 0xe3, 0x02, 0xbf, 0xac, 0xd5, 0x47, 0x3f, 0x03, 0x4a, 0x47, 0xbf,
  0x82, 0x25, 0xd7, 0x3e, 0x3d, 0x61, 0xf0, 0x3e, 0x44, 0xaf, 0x5c, 0x3e,
  0x02, 0xb1, 0x68, 0x3f, 0x87, 0x71, 0xa7, 0x3e, 0x4b, 0xee, 0x15, 0xbe,
  0x9d, 0xee, 0x08, 0x3d, 0x47, 0x45, 0xa6, 0x3e, 0x17, 0xe2, 0x2e, 0x3e,
  0x68, 0x6e, 0x05, 0xbe, 0x1e, 0xff, 0xff, 0xff, 0x10, 0x00, 0x00, 0x00,
  0x04, 0x00, 0x00, 0x00, 0x14, 0x00, 0x00, 0x00, 0x2c, 0x00, 0x00, 0x00,
  0x02, 0x00, 0x00, 0x00, 0x08, 0x00, 0x00, 0x00, 0x16, 0x00, 0x00, 0x00,
  0x16, 0x00, 0x00, 0x00, 0x6d, 0x6f, 0x64, 0x65, 0x6c, 0x5f, 0x33, 0x2f,
  0x64, 0x65, 0x6e, 0x73, 0x65, 0x5f, 0x36, 0x2f, 0x4d, 0x61, 0x74, 0x4d,
  0x75, 0x6c, 0x00, 0x00, 0xa4, 0xfe, 0xff, 0xff, 0x92, 0xff, 0xff, 0xff,
  0x04, 0x00, 0x00, 0x00, 0x08, 0x00, 0x00, 0x00, 0xda, 0x82, 0x8f, 0x3e,
  0xd8, 0x82, 0x8f, 0xbe, 0x72, 0xff, 0xff, 0xff, 0x10, 0x00, 0x00, 0x00,
  0x03, 0x00, 0x00, 0x00, 0x10, 0x00, 0x00, 0x00, 0x44, 0x00, 0x00, 0x00,
  0x01, 0x00, 0x00, 0x00, 0x02, 0x00, 0x00, 0x00, 0x2f, 0x00, 0x00, 0x00,
  0x6d, 0x6f, 0x64, 0x65, 0x6c, 0x5f, 0x33, 0x2f, 0x64, 0x65, 0x6e, 0x73,
  0x65, 0x5f, 0x37, 0x2f, 0x42, 0x69, 0x61, 0x73, 0x41, 0x64, 0x64, 0x2f,
  0x52, 0x65, 0x61, 0x64, 0x56, 0x61, 0x72, 0x69, 0x61, 0x62, 0x6c, 0x65,
  0x4f, 0x70, 0x2f, 0x72, 0x65, 0x73, 0x6f, 0x75, 0x72, 0x63, 0x65, 0x00,
  0x04, 0x00, 0x06, 0x00, 0x04, 0x00, 0x00, 0x00, 0x00, 0x00, 0x06, 0x00,
  0x08, 0x00, 0x04, 0x00, 0x06, 0x00, 0x00, 0x00, 0x04, 0x00, 0x00, 0x00,
  0x20, 0x00, 0x00, 0x00, 0xcc, 0xb3, 0xc1, 0x3e, 0x84, 0x8f, 0xd0, 0x3d,
  0x94, 0x81, 0x1b, 0x3f, 0x1a, 0x7e, 0x15, 0x3f, 0x73, 0x88, 0xe1, 0x3c,
  0x10, 0x85, 0x9f, 0x3b, 0xa7, 0x29, 0xea, 0x3e, 0x59, 0xa5, 0x97, 0x3e,
  0x00, 0x00, 0x0e, 0x00, 0x14, 0x00, 0x04, 0x00, 0x00, 0x00, 0x08, 0x00,
  0x0c, 0x00, 0x10, 0x00, 0x0e, 0x00, 0x00, 0x00, 0x10, 0x00, 0x00, 0x00,
  0x02, 0x00, 0x00, 0x00, 0x10, 0x00, 0x00, 0x00, 0x40, 0x00, 0x00, 0x00,
  0x01, 0x00, 0x00, 0x00, 0x08, 0x00, 0x00, 0x00, 0x2f, 0x00, 0x00, 0x00,
  0x6d, 0x6f, 0x64, 0x65, 0x6c, 0x5f, 0x33, 0x2f, 0x64, 0x65, 0x6e, 0x73,
  0x65, 0x5f, 0x36, 0x2f, 0x42, 0x69, 0x61, 0x73, 0x41, 0x64, 0x64, 0x2f,
  0x52, 0x65, 0x61, 0x64, 0x56, 0x61, 0x72, 0x69, 0x61, 0x62, 0x6c, 0x65,
  0x4f, 0x70, 0x2f, 0x72, 0x65, 0x73, 0x6f, 0x75, 0x72, 0x63, 0x65, 0x00,
  0xa8, 0xff, 0xff, 0xff, 0x14, 0x00, 0x18, 0x00, 0x04, 0x00, 0x00, 0x00,
  0x08, 0x00, 0x0c, 0x00, 0x10, 0x00, 0x00, 0x00, 0x00, 0x00, 0x14, 0x00,
  0x14, 0x00, 0x00, 0x00, 0x14, 0x00, 0x00, 0x00, 0x01, 0x00, 0x00, 0x00,
  0x18, 0x00, 0x00, 0x00, 0x2c, 0x00, 0x00, 0x00, 0x1c, 0x00, 0x00, 0x00,
  0x02, 0x00, 0x00, 0x00, 0x01, 0x00, 0x00, 0x00, 0x16, 0x00, 0x00, 0x00,
  0x07, 0x00, 0x00, 0x00, 0x69, 0x6e, 0x70, 0x75, 0x74, 0x5f, 0x34, 0x00,
  0x02, 0x00, 0x00, 0x00, 0xff, 0xff, 0xff, 0xff, 0x16, 0x00, 0x00, 0x00,
  0xfc, 0xff, 0xff, 0xff, 0x04, 0x00, 0x04, 0x00, 0x04, 0x00, 0x00, 0x00
};
unsigned int hidden1x8_tflite_len = 2160;
